<?xml version="1.0"?>
<opencv_storage>
<cascade>
  <stageType>BOOST</stageType>
  <featureType>LBP</featureType>
  <height>30</height>
  <width>30</width>
  <stageParams>
    <boostType>GAB</boostType>
    <minHitRate>9.9900001287460327e-01</minHitRate>
    <maxFalseAlarm>5.0000000000000000e-01</maxFalseAlarm>
    <weightTrimRate>9.4999999999999996e-01</weightTrimRate>
    <maxDepth>1</maxDepth>
    <maxWeakCount>100</maxWeakCount></stageParams>
  <featureParams>
    <maxCatCount>256</maxCatCount>
    <featSize>1</featSize></featureParams>
  <stageNum>18</stageNum>
  <stages>
    <!-- stage 0 -->
    <_>
      <maxWeakCount>7</maxWeakCount>
      <stageThreshold>-2.6825721263885498e+00</stageThreshold>
      <weakClassifiers>
        <_>
          <internalNodes>
            0 -1 206 -1 -268435457 -1 -1 -1 -268435457 -1 -268435457</internalNodes>
          <leafValues>
            -9.1181796789169312e-01 5.2681993693113327e-02</leafValues></_>
        <_>
          <internalNodes>
            0 -1 123 -513 -1107361793 -8388611 -33554433 -16908801
            -33686532 -318984964 -1996685828</internalNodes>
          <leafValues>
            -7.7161163091659546e-01 3.8420963287353516e-01</leafValues></_>
        <_>
          <internalNodes>
            0 -1 153 -142606337 -157 -4718765 -15204605 -79 -1342251085
            -1105545952 240386</internalNodes>
          <leafValues>
            -7.4130147695541382e-01 4.0745198726654053e-01</leafValues></_>
        <_>
          <internalNodes>
            0 -1 64 2045902845 -4325379 -81923 -537788934 -17432836
            -720900 -65209188 551940292</internalNodes>
          <leafValues>
            -6.4256745576858521e-01 4.5756083726882935e-01</leafValues></_>
        <_>
          <internalNodes>
            0 -1 12 1785386926 2133376674 -1310789 2079777778 -1052673
            -5256210 -16777217 -538613820</internalNodes>
          <leafValues>
            -6.1690348386764526e-01 4.1784921288490295e-01</leafValues></_>
        <_>
          <internalNodes>
            0 -1 35 -583663844 488046180 1065220797 -1217546243 -66083
            2138438645 523165597 2101214709</internalNodes>
          <leafValues>
            -5.9649336338043213e-01 4.3101257085800171e-01</leafValues></_>
        <_>
          <internalNodes>
            0 -1 222 -1346783233 -1384120322 -16779329 -235143193
            -1124089857 -1895841923 -1073744647 -20995</internalNodes>
          <leafValues>
            -4.3878886103630066e-01 5.7061731815338135e-01</leafValues></_></weakClassifiers></_>
    <!-- stage 1 -->
    <_>
      <maxWeakCount>9</maxWeakCount>
      <stageThreshold>-2.9086172580718994e+00</stageThreshold>
      <weakClassifiers>
        <_>
          <internalNodes>
            0 -1 185 -1 -1342177793 -570425345 -1 -1 -805307393 -262145
            -268435457</internalNodes>
          <leafValues>
            -9.1963046789169312e-01 -1.9881500303745270e-01</leafValues></_>
        <_>
          <internalNodes>
            0 -1 81 -168495115 -131105 -1025 -2049 -17498114 -200964
            -196609 -3080198</internalNodes>
          <leafValues>
            -7.4380916357040405e-01 2.1350358426570892e-01</leafValues></_>
        <_>
          <internalNodes>
            0 -1 7 -542187522 -81330300 -273711106 -552885376
            -1090519041 -10633251 -4194305 2004876834</internalNodes>
          <leafValues>
            -6.9335210323333740e-01 3.5513994097709656e-01</leafValues></_>
        <_>
          <internalNodes>
            0 -1 112 1999105792 1065418256 -38814817 -1145045507
            -1610615404 1073213437 -1355170145 -1112540245</internalNodes>
          <leafValues>
            -5.9331911802291870e-01 3.9445772767066956e-01</leafValues></_>
        <_>
          <internalNodes>
            0 -1 109 888438709 2147327487 -1073774593 -131073 500462841
            -1078132804 1072529341 -1074774684</internalNodes>
          <leafValues>
            -4.6674466133117676e-01 4.6708449721336365e-01</leafValues></_>
        <_>
          <internalNodes>
            0 -1 22 -386204677 -1684010230 -1279263361 -15530202
            905952247 -1682098381 2139055099 1702328131</internalNodes>
          <leafValues>
            -4.8330858349800110e-01 4.5872929692268372e-01</leafValues></_>
        <_>
          <internalNodes>
            0 -1 214 -1551898629 -1343259651 -35669003 -285262338
            -1912602625 -1880115713 -1610620930 -1912621060</internalNodes>
          <leafValues>
            -5.0882709026336670e-01 4.6563836932182312e-01</leafValues></_>
        <_>
          <internalNodes>
            0 -1 104 -1476220742 -1354974410 -1083834885 1025552304
            -639041554 -1166180865 -69222401 -1344532570</internalNodes>
          <leafValues>
            -6.1611324548721313e-01 3.3879154920578003e-01</leafValues></_>
        <_>
          <internalNodes>
            0 -1 5 -268633892 -68616676 -136445967 -1250657448 -8
            -2102322 -196611 885273044</internalNodes>
          <leafValues>
            -8.3404231071472168e-01 2.1954454481601715e-01</leafValues></_></weakClassifiers></_>
    <!-- stage 2 -->
    <_>
      <maxWeakCount>9</maxWeakCount>
      <stageThreshold>-2.8437845706939697e+00</stageThreshold>
      <weakClassifiers>
        <_>
          <internalNodes>
            0 -1 205 -1 -335552513 -1 -1 -1 -805312001 -1 -1</internalNodes>
          <leafValues>
            -9.0186357498168945e-01 -1.3932679593563080e-01</leafValues></_>
        <_>
          <internalNodes>
            0 -1 79 1945239516 -10617636 2134359486 -35783169 -537395201
            -131651 -8962 -769</internalNodes>
          <leafValues>
            -7.2783005237579346e-01 1.4698918163776398e-01</leafValues></_>
        <_>
          <internalNodes>
            0 -1 161 -4097 234880239 -1075839011 -1396834377 -1090847489
            -1879212033 -554829572 -2000814660</internalNodes>
          <leafValues>
            -5.9097951650619507e-01 3.5475745797157288e-01</leafValues></_>
        <_>
          <internalNodes>
            0 -1 166 -513 -205 -524429 -101466241 -2049 -419431613
            -283650160 1283075</internalNodes>
          <leafValues>
            -5.3599166870117188e-01 3.7614226341247559e-01</leafValues></_>
        <_>
          <internalNodes>
            0 -1 50 872216564 1593372656 -72 -198172 746485750
            -580618380 2147071484 287593520</internalNodes>
          <leafValues>
            -8.0316984653472900e-01 2.4339485168457031e-01</leafValues></_>
        <_>
          <internalNodes>
            0 -1 146 411057205 -1093369864 1073399807 -33710211
            -1073741833 -1074823425 -1115819521 -1087892548</internalNodes>
          <leafValues>
            -5.1298582553863525e-01 3.7940111756324768e-01</leafValues></_>
        <_>
          <internalNodes>
            0 -1 11 -1964331478 -1658148302 1073741183 2142249834
            804845530 -1343012875 -541065249 1735423319</internalNodes>
          <leafValues>
            -7.0550644397735596e-01 2.6011398434638977e-01</leafValues></_>
        <_>
          <internalNodes>
            0 -1 223 -1342177281 -1342701762 -2065 -17858593 -1342177585
            -1342308417 -1879048961 -538968321</internalNodes>
          <leafValues>
            -3.7693721055984497e-01 5.1673775911331177e-01</leafValues></_>
        <_>
          <internalNodes>
            0 -1 155 -268566732 65925047 -145097882 -305862668
            -1074268238 -1200507424 1040193282 -1323043917</internalNodes>
          <leafValues>
            -5.2670347690582275e-01 3.5278102755546570e-01</leafValues></_></weakClassifiers></_>
    <!-- stage 3 -->
    <_>
      <maxWeakCount>12</maxWeakCount>
      <stageThreshold>-2.7042324542999268e+00</stageThreshold>
      <weakClassifiers>
        <_>
          <internalNodes>
            0 -1 193 -1 -268697601 -262657 -1 -131073 -807403521 -262145
            -268435457</internalNodes>
          <leafValues>
            -9.0464985370635986e-01 -2.8177538514137268e-01</leafValues></_>
        <_>
          <internalNodes>
            0 -1 55 1978974207 -657409 -4294657 -139265 2130196471
            -134153 2146729727 -624778</internalNodes>
          <leafValues>
            -6.5284031629562378e-01 2.6046860218048096e-01</leafValues></_>
        <_>
          <internalNodes>
            0 -1 37 1433459156 2044592125 -33687585 2146303999
            1976924116 2145681406 -167969 -44695809</internalNodes>
          <leafValues>
            -5.8639240264892578e-01 3.3033102750778198e-01</leafValues></_>
        <_>
          <internalNodes>
            0 -1 117 2074803120 -147652816 -327683 1394327412 -25165825
            -67665995 -4 -41946060</internalNodes>
          <leafValues>
            -5.3999382257461548e-01 3.2544663548469543e-01</leafValues></_>
        <_>
          <internalNodes>
            0 -1 223 -1888506113 -1367883778 -268437505 -269557778
            -1343226129 -1342178497 -587211523 -1931477507</internalNodes>
          <leafValues>
            -4.8332825303077698e-01 3.3807837963104248e-01</leafValues></_>
        <_>
          <internalNodes>
            0 -1 90 1415319308 794623629 -25906577 -153240834 -4334132
            804641791 1068023322 1068350363</internalNodes>
          <leafValues>
            -6.4239186048507690e-01 2.7722409367561340e-01</leafValues></_>
        <_>
          <internalNodes>
            0 -1 8 -537461354 -366215390 -268697956 506805002 -8391906
            -76940375 -12586403 1949694480</internalNodes>
          <leafValues>
            -6.1343765258789062e-01 2.5541684031486511e-01</leafValues></_>
        <_>
          <internalNodes>
            0 -1 122 -135471239 -1108541443 -35782668 -33751062
            -1077938691 -1074135077 -1665598216 -1929448198</internalNodes>
          <leafValues>
            -4.6199646592140198e-01 3.4631788730621338e-01</leafValues></_>
        <_>
          <internalNodes>
            0 -1 145 -2002732291 -721668 -1090576417 -1725087747
            -1073807875 -1342177281 -25301057 -1078326032</internalNodes>
          <leafValues>
            -3.5834750533103943e-01 4.6544772386550903e-01</leafValues></_>
        <_>
          <internalNodes>
            0 -1 208 -1392591913 -1435568146 -9463724 -16859140
            -1363215418 268270451 1457905396 -536879747</internalNodes>
          <leafValues>
            -4.3472677469253540e-01 3.7850138545036316e-01</leafValues></_>
        <_>
          <internalNodes>
            0 -1 3 -1905603438 -273895774 2143641439 -331580558
            -287446018 -140579913 -809500705 1433433975</internalNodes>
          <leafValues>
            -6.9003504514694214e-01 2.2889351844787598e-01</leafValues></_>
        <_>
          <internalNodes>
            0 -1 73 1366687196 -277480017 -262145 -6684674 -33593730
            -984148 -1176504100 416646376</internalNodes>
          <leafValues>
            -5.8308953046798706e-01 2.6943594217300415e-01</leafValues></_></weakClassifiers></_>
    <!-- stage 4 -->
    <_>
      <maxWeakCount>10</maxWeakCount>
      <stageThreshold>-2.4013130664825439e+00</stageThreshold>
      <weakClassifiers>
        <_>
          <internalNodes>
            0 -1 193 -1 -268697601 -16777729 -1 -1 -805306369 -257 -1</internalNodes>
          <leafValues>
            -9.0016198158264160e-01 -2.6813423633575439e-01</leafValues></_>
        <_>
          <internalNodes>
            0 -1 137 1073020381 -1077035016 1069545981 -167427
            -1074021377 -1073873409 -1140994049 -1078457924</internalNodes>
          <leafValues>
            -6.5572422742843628e-01 1.5934041142463684e-01</leafValues></_>
        <_>
          <internalNodes>
            0 -1 25 -92556301 -81544389 -1548667085 -1145881685
            1848860287 -76349449 2137783807 2003006811</internalNodes>
          <leafValues>
            -4.9022620916366577e-01 3.5140916705131531e-01</leafValues></_>
        <_>
          <internalNodes>
            0 -1 209 -1377042433 -1347437569 -270532930 -637698056
            -1342703617 251657197 -1879126801 -1409298497</internalNodes>
          <leafValues>
            -4.0987280011177063e-01 4.2737734317779541e-01</leafValues></_>
        <_>
          <internalNodes>
            0 -1 119 -301990112 -1274216560 -1082409348 -1246233089
            -599888 971964404 -1094740796 -1112621893</internalNodes>
          <leafValues>
            -5.9136128425598145e-01 2.8657922148704529e-01</leafValues></_>
        <_>
          <internalNodes>
            0 -1 6 1137376166 655030194 1053818879 1731096490 -9438469
            765851895 -32785 1866858310</internalNodes>
          <leafValues>
            -6.0274744033813477e-01 2.9699936509132385e-01</leafValues></_>
        <_>
          <internalNodes>
            0 -1 139 -1845491788 -839057423 1876816765 -168198155
            -50937859 -1090536450 -1912873025 -1617421155</internalNodes>
          <leafValues>
            -4.9314221739768982e-01 3.1778609752655029e-01</leafValues></_>
        <_>
          <internalNodes>
            0 -1 54 2046590453 -85131465 -4227073 -8994836 2146465143
            -559233 2147123199 -9212077</internalNodes>
          <leafValues>
            -3.4899181127548218e-01 4.4808724522590637e-01</leafValues></_>
        <_>
          <internalNodes>
            0 -1 96 -94732324 860864286 -10486956 2134114050 -25429153
            2147212253 -1049008 806347780</internalNodes>
          <leafValues>
            -6.6850507259368896e-01 2.3985509574413300e-01</leafValues></_>
        <_>
          <internalNodes>
            0 -1 1 -373295493 -1440694602 354276215 1207476316 -1116225
            -819233809 905788671 -537439489</internalNodes>
          <leafValues>
            -3.7872284650802612e-01 3.9039540290832520e-01</leafValues></_></weakClassifiers></_>
    <!-- stage 5 -->
    <_>
      <maxWeakCount>12</maxWeakCount>
      <stageThreshold>-2.7831623554229736e+00</stageThreshold>
      <weakClassifiers>
        <_>
          <internalNodes>
            0 -1 219 -1 -1342177281 -42205185 -67108865 -4097 805306367
            -1076887617 -1</internalNodes>
          <leafValues>
            -8.7992185354232788e-01 -2.4890404939651489e-01</leafValues></_>
        <_>
          <internalNodes>
            0 -1 173 -16851969 -1342177281 -19005697 -318775301
            -42336257 -1879319553 -591397636 -1929380353</internalNodes>
          <leafValues>
            -7.2419607639312744e-01 2.5099691003561020e-02</leafValues></_>
        <_>
          <internalNodes>
            0 -1 63 1356682495 -537034785 -139265 -71434241 2096201210
            -67310598 -1107525829 -2831410</internalNodes>
          <leafValues>
            -4.5810538530349731e-01 3.6320886015892029e-01</leafValues></_>
        <_>
          <internalNodes>
            0 -1 87 1037317876 363919068 -34817 -1073872903 1023161527
            -1074206794 1030184958 1067741280</internalNodes>
          <leafValues>
            -5.2016621828079224e-01 2.9461741447448730e-01</leafValues></_>
        <_>
          <internalNodes>
            0 -1 156 1068482064 85053361 -34734218 -173539454
            -1113525968 -1875872304 1042994946 -2147223629</internalNodes>
          <leafValues>
            -6.1261159181594849e-01 2.8259304165840149e-01</leafValues></_>
        <_>
          <internalNodes>
            0 -1 18 1873737454 -575742168 -1107337218 -649134398
            -277880837 1068467132 -25693185 -537405469</internalNodes>
          <leafValues>
            -5.0645673274993896e-01 2.9508653283119202e-01</leafValues></_>
        <_>
          <internalNodes>
            0 -1 221 -1347420786 -1511030798 -33816604 -151519890
            801042423 259981173 133158100 -1891631619</internalNodes>
          <leafValues>
            -4.6861913800239563e-01 3.0490809679031372e-01</leafValues></_>
        <_>
          <internalNodes>
            0 -1 61 1624260717 -9053203 2063100735 -1865375763
            1996586356 1741907711 2053074299 2144083887</internalNodes>
          <leafValues>
            -5.7464027404785156e-01 2.5315642356872559e-01</leafValues></_>
        <_>
          <internalNodes>
            0 -1 72 1366360020 -278069284 1071439868 2078081023
            -50954834 -419561474 -335946530 957380824</internalNodes>
          <leafValues>
            -7.0073473453521729e-01 1.9471801817417145e-01</leafValues></_>
        <_>
          <internalNodes>
            0 -1 154 -268706425 434109234 -1151389981 -1402359821
            -292553069 -1975785870 1829705220 51633955</internalNodes>
          <leafValues>
            -5.5624806880950928e-01 2.3187473416328430e-01</leafValues></_>
        <_>
          <internalNodes>
            0 -1 165 78128313 253422335 -1115703299 -174096651
            -554844193 -806946867 -41959457 -1349768836</internalNodes>
          <leafValues>
            -4.1489487886428833e-01 3.4837651252746582e-01</leafValues></_>
        <_>
          <internalNodes>
            0 -1 24 -73161845 -1824510301 -1270926369 -346872001
            805140479 -1145143499 1195834199 2100656759</internalNodes>
          <leafValues>
            -4.3314424157142639e-01 3.3861035108566284e-01</leafValues></_></weakClassifiers></_>
    <!-- stage 6 -->
    <_>
      <maxWeakCount>12</maxWeakCount>
      <stageThreshold>-2.5690293312072754e+00</stageThreshold>
      <weakClassifiers>
        <_>
          <internalNodes>
            0 -1 172 -1048577 -33554435 -67635201 -33560577 -272629761
            -575679067 -537919489 -570434049</internalNodes>
          <leafValues>
            -8.8059848546981812e-01 -2.4770642817020416e-01</leafValues></_>
        <_>
          <internalNodes>
            0 -1 206 -8388609 -1912602625 -18880777 -536887553 -33620481
            -1879310337 -538968836 -268436033</internalNodes>
          <leafValues>
            -6.5992671251296997e-01 1.1998734623193741e-01</leafValues></_>
        <_>
          <internalNodes>
            0 -1 110 788389332 492345076 -1342211619 -1610874903
            1572215743 -1155990050 1066593471 216549024</internalNodes>
          <leafValues>
            -5.6404620409011841e-01 2.5590255856513977e-01</leafValues></_>
        <_>
          <internalNodes>
            0 -1 10 -1037893925 -81615702 -1980862723 -235423246
            -2131492869 -541397381 1557617631 1499985783</internalNodes>
          <leafValues>
            -4.0605139732360840e-01 3.6036652326583862e-01</leafValues></_>
        <_>
          <internalNodes>
            0 -1 51 -35127299 635305438 -1617428481 -170885514 -71565324
            1566331260 -127599364 276952180</internalNodes>
          <leafValues>
            -5.6747525930404663e-01 2.8539767861366272e-01</leafValues></_>
        <_>
          <internalNodes>
            0 -1 217 -269492310 -1024543960 100644640 -534004040
            2050859858 1075990818 -768093884 -796395584</internalNodes>
          <leafValues>
            -4.7892132401466370e-01 2.9539948701858521e-01</leafValues></_>
        <_>
          <internalNodes>
            0 -1 36 1372603856 -143035435 -44376075 -34210307 1972389205
            2012577533 -235438401 -110078771</internalNodes>
          <leafValues>
            -5.6889933347702026e-01 2.4493166804313660e-01</leafValues></_>
        <_>
          <internalNodes>
            0 -1 130 -2132238915 -1343422786 972929463 -1845517191
            -1678926849 -1895896065 -100771585 -1615459321</internalNodes>
          <leafValues>
            -4.3335431814193726e-01 3.1969785690307617e-01</leafValues></_>
        <_>
          <internalNodes>
            0 -1 149 -4212823 -1323565721 891174789 -12851599 -319845325
            678378294 235749380 69457431</internalNodes>
          <leafValues>
            -6.0955733060836792e-01 2.2282490134239197e-01</leafValues></_>
        <_>
          <internalNodes>
            0 -1 198 -1076508371 -945834130 -1832162990 1944575231
            -540279372 1159195237 -2089293931 -570434145</internalNodes>
          <leafValues>
            -3.6089140176773071e-01 3.7414249777793884e-01</leafValues></_>
        <_>
          <internalNodes>
            0 -1 108 -72059420 -34018821 -1078214721 -172156940
            -1619722243 -1146490117 -23151237 -1185412096</internalNodes>
          <leafValues>
            -3.6395430564880371e-01 3.7389007210731506e-01</leafValues></_>
        <_>
          <internalNodes>
            0 -1 60 1919680730 -1413547057 955412900 954278526
            2127379921 -134395089 1591578009 978150727</internalNodes>
          <leafValues>
            -6.2960129976272583e-01 2.1397615969181061e-01</leafValues></_></weakClassifiers></_>
    <!-- stage 7 -->
    <_>
      <maxWeakCount>13</maxWeakCount>
      <stageThreshold>-2.5278635025024414e+00</stageThreshold>
      <weakClassifiers>
        <_>
          <internalNodes>
            0 -1 220 -33 -1346371601 -33554433 -67109377 -1073741829
            -1880097985 -1073741825 -1</internalNodes>
          <leafValues>
            -8.8452589511871338e-01 -2.8350514173507690e-01</leafValues></_>
        <_>
          <internalNodes>
            0 -1 192 -1342177281 -1912735745 -17301762 -33554689
            -1879048193 -2013267089 -1610629633 -1342177281</internalNodes>
          <leafValues>
            -6.3395017385482788e-01 1.0970137268304825e-01</leafValues></_>
        <_>
          <internalNodes>
            0 -1 159 -219349106 -4399122 -35408 -33620005 -1895830273
            -1996506881 1289737712 -1929380609</internalNodes>
          <leafValues>
            -4.7890427708625793e-01 2.6250907778739929e-01</leafValues></_>
        <_>
          <internalNodes>
            0 -1 21 -403775537 -891097118 -402718725 -537592854
            -1351299077 -323584303 1874853823 -135010317</internalNodes>
          <leafValues>
            -4.0435227751731873e-01 3.4020838141441345e-01</leafValues></_>
        <_>
          <internalNodes>
            0 -1 53 -705273865 -6094942 -1075871757 -538251358 653555505
            1853707639 -135102729 -9210093</internalNodes>
          <leafValues>
            -3.8835197687149048e-01 3.4679794311523438e-01</leafValues></_>
        <_>
          <internalNodes>
            0 -1 151 -1441859072 -1170555020 -1073807433 258846710
            -214017 -148128948 1072693212 -867107552</internalNodes>
          <leafValues>
            -6.1915671825408936e-01 2.3917800188064575e-01</leafValues></_>
        <_>
          <internalNodes>
            0 -1 78 -68813044 256245692 1067692029 -47333427 -536875856
            1000208380 -1414742517 640502951</internalNodes>
          <leafValues>
            -5.4012733697891235e-01 2.3409327864646912e-01</leafValues></_>
        <_>
          <internalNodes>
            0 -1 102 1031026485 -2721800 -114689 -1612783682 1072988153
            -9236 -302220801 -1343213792</internalNodes>
          <leafValues>
            -4.3739461898803711e-01 2.8724753856658936e-01</leafValues></_>
        <_>
          <internalNodes>
            0 -1 180 -1673529424 567208938 -73994010 7730935 -268443797
            1330509798 -192973692 1154986930</internalNodes>
          <leafValues>
            -5.6327736377716064e-01 2.1966259181499481e-01</leafValues></_>
        <_>
          <internalNodes>
            0 -1 143 -1939840028 -1629947910 -1361219715 -1687896323
            -1378042887 -1812205607 1073716717 -1945630312</internalNodes>
          <leafValues>
            -4.8923686146736145e-01 2.4474152922630310e-01</leafValues></_>
        <_>
          <internalNodes>
            0 -1 23 -187248965 984125230 2044710207 -67940601 -136382681
            -583961037 273251319 1383548791</internalNodes>
          <leafValues>
            -4.6089655160903931e-01 2.8923606872558594e-01</leafValues></_>
        <_>
          <internalNodes>
            0 -1 134 758118918 656824181 -1081938306 -1501701645
            -135950910 -1212288268 -1367046654 506189747</internalNodes>
          <leafValues>
            -5.1894080638885498e-01 2.2890000045299530e-01</leafValues></_>
        <_>
          <internalNodes>
            0 -1 152 -185069616 -1349272795 -524423 -1087242397
            -1164977185 -218366135 -1074572172 20041764</internalNodes>
          <leafValues>
            -6.9370871782302856e-01 1.7140050232410431e-01</leafValues></_></weakClassifiers></_>
    <!-- stage 8 -->
    <_>
      <maxWeakCount>15</maxWeakCount>
      <stageThreshold>-2.6286206245422363e+00</stageThreshold>
      <weakClassifiers>
        <_>
          <internalNodes>
            0 -1 202 -1 -268435521 -2097153 -524289 -33556481 1342172155
            -134479873 -1</internalNodes>
          <leafValues>
            -8.9261674880981445e-01 -3.9981302618980408e-01</leafValues></_>
        <_>
          <internalNodes>
            0 -1 223 -1880107777 -1359495297 -150996993 -2105379
            -1343227153 -1879049281 -1895825921 -1</internalNodes>
          <leafValues>
            -6.4882904291152954e-01 4.6589452773332596e-02</leafValues></_>
        <_>
          <internalNodes>
            0 -1 56 -35651848 880212212 -862755 -33554536 1941364124
            1028978565 2143289322 552022628</internalNodes>
          <leafValues>
            -6.1156755685806274e-01 1.8302397429943085e-01</leafValues></_>
        <_>
          <internalNodes>
            0 -1 105 -1289176778 2066904184 -80642049 1996795892
            716947423 -272632961 1073740663 -138566010</internalNodes>
          <leafValues>
            -5.2637964487075806e-01 2.2318591177463531e-01</leafValues></_>
        <_>
          <internalNodes>
            0 -1 46 -1185284652 -304545795 -1089470499 -983078 -1706768
            -15413268 -1128473448 283504868</internalNodes>
          <leafValues>
            -6.4026516675949097e-01 2.1803455054759979e-01</leafValues></_>
        <_>
          <internalNodes>
            0 -1 158 -136846464 -1247019088 -409600080 628620593
            1073125302 -1531489870 -1611524799 -2116594249</internalNodes>
          <leafValues>
            -5.2985233068466187e-01 2.3465169966220856e-01</leafValues></_>
        <_>
          <internalNodes>
            0 -1 31 -135892448 1964893985 -79828033 -67240007 846473009
            557142719 -167183302 893386669</internalNodes>
          <leafValues>
            -5.6470668315887451e-01 2.0109063386917114e-01</leafValues></_>
        <_>
          <internalNodes>
            0 -1 58 -836309278 644402658 629136593 697837298 -1879075909
            -1906312197 234354167 -807410227</internalNodes>
          <leafValues>
            -4.1449165344238281e-01 2.9099792242050171e-01</leafValues></_>
        <_>
          <internalNodes>
            0 -1 99 343724029 -772484 -34235073 -1125134919 -1258883585
            -306430977 -274056086 201329784</internalNodes>
          <leafValues>
            -4.5033767819404602e-01 2.7456882596015930e-01</leafValues></_>
        <_>
          <internalNodes>
            0 -1 27 -100946181 171478960 889920163 -5102613 1965774819
            -1704985225 2137470707 1953658743</internalNodes>
          <leafValues>
            -4.6983635425567627e-01 2.5212323665618896e-01</leafValues></_>
        <_>
          <internalNodes>
            0 -1 127 -1121689776 -2164932 2010635366 -251917084
            -1208173642 1945467767 -246835 -1141373744</internalNodes>
          <leafValues>
            -4.4157302379608154e-01 2.7190449833869934e-01</leafValues></_>
        <_>
          <internalNodes>
            0 -1 196 -610271282 -358351252 -369231008 1499586303
            -1347247166 82832136 2008774100 -1040188145</internalNodes>
          <leafValues>
            -4.1177076101303101e-01 3.0779820680618286e-01</leafValues></_>
        <_>
          <internalNodes>
            0 -1 13 -851457040 -418578932 -3145734 237869826 2143813503
            -270545937 -290227586 1937744508</internalNodes>
          <leafValues>
            -5.5782449245452881e-01 2.1653977036476135e-01</leafValues></_>
        <_>
          <internalNodes>
            0 -1 185 2144259583 -1381075537 2107632851 -570436257
            -1280507907 -822349906 -328454 -1895828292</internalNodes>
          <leafValues>
            -3.8194689154624939e-01 3.1782680749893188e-01</leafValues></_>
        <_>
          <internalNodes>
            0 -1 132 -1616726019 -34165124 2147483103 1035852981
            -1109614857 -537919617 -50618433 -1900541908</internalNodes>
          <leafValues>
            -3.3571916818618774e-01 3.8821062445640564e-01</leafValues></_></weakClassifiers></_>
    <!-- stage 9 -->
    <_>
      <maxWeakCount>12</maxWeakCount>
      <stageThreshold>-2.2376582622528076e+00</stageThreshold>
      <weakClassifiers>
        <_>
          <internalNodes>
            0 -1 205 -2097153 -806101001 -35653953 -8193 -8388673
            -818155521 -571473921 -1</internalNodes>
          <leafValues>
            -8.9778518676757812e-01 -4.5975232124328613e-01</leafValues></_>
        <_>
          <internalNodes>
            0 -1 52 -71305417 2147467251 -147497 -33817537 -9016713
            -41975945 -143130765 -787593</internalNodes>
          <leafValues>
            -5.8102554082870483e-01 1.7456988990306854e-01</leafValues></_>
        <_>
          <internalNodes>
            0 -1 222 -1342578889 -1359151234 -553683267 -209715484
            -1526743044 -1887700627 234869968 -805319171</internalNodes>
          <leafValues>
            -4.7911769151687622e-01 2.5202232599258423e-01</leafValues></_>
        <_>
          <internalNodes>
            0 -1 160 1002199035 -1078001803 -667783 -1465604 -1073827847
            -1073741873 -1078018151 -1644427096</internalNodes>
          <leafValues>
            -4.0114012360572815e-01 3.3855947852134705e-01</leafValues></_>
        <_>
          <internalNodes>
            0 -1 148 -537395452 369090197 -604899354 -144248876
            -1074284574 -1476806672 2115129090 -1222395982</internalNodes>
          <leafValues>
            -4.7294262051582336e-01 2.6901590824127197e-01</leafValues></_>
        <_>
          <internalNodes>
            0 -1 68 -454111249 -881394118 1473735807 -1451434362
            1733724107 1333752783 -279980065 1178537951</internalNodes>
          <leafValues>
            -4.1488701105117798e-01 3.1633493304252625e-01</leafValues></_>
        <_>
          <internalNodes>
            0 -1 32 -27953652 -66989283 -1076020707 -193087507
            1945919384 2083842801 -147953221 959444923</internalNodes>
          <leafValues>
            -5.5423599481582642e-01 2.2353972494602203e-01</leafValues></_>
        <_>
          <internalNodes>
            0 -1 71 272236508 -301170706 2126085853 1040039903
            -537002342 -17448962 1073577806 164133628</internalNodes>
          <leafValues>
            -4.7445881366729736e-01 2.4267950654029846e-01</leafValues></_>
        <_>
          <internalNodes>
            0 -1 172 -1087438937 -571605004 1073739775 -570494979
            -1086341158 -860383884 -1122882 1297831423</internalNodes>
          <leafValues>
            -3.1942254304885864e-01 3.6102542281150818e-01</leafValues></_>
        <_>
          <internalNodes>
            0 -1 66 -1368398349 -1939149846 656622513 1232864766
            -1351092757 1775090283 1340036607 -806382117</internalNodes>
          <leafValues>
            -3.3512845635414124e-01 3.6516520380973816e-01</leafValues></_>
        <_>
          <internalNodes>
            0 -1 163 109583613 -1371641047 -1192001801 -1480642945
            -2032215 -1099108753 -570890757 -1677980356</internalNodes>
          <leafValues>
            -4.0564149618148804e-01 3.0037045478820801e-01</leafValues></_>
        <_>
          <internalNodes>
            0 -1 177 -509103968 687143674 -1755318315 -1749845253
            1879029467 -337650729 -771932688 1147639076</internalNodes>
          <leafValues>
            -5.1225727796554565e-01 2.3446881771087646e-01</leafValues></_></weakClassifiers></_>
    <!-- stage 10 -->
    <_>
      <maxWeakCount>15</maxWeakCount>
      <stageThreshold>-2.4131798744201660e+00</stageThreshold>
      <weakClassifiers>
        <_>
          <internalNodes>
            0 -1 200 -2081 -272637953 -135267841 -1 -134225921
            1339553791 -402657281 -1</internalNodes>
          <leafValues>
            -8.8416868448257446e-01 -4.7609269618988037e-01</leafValues></_>
        <_>
          <internalNodes>
            0 -1 214 -1342770245 -1360528385 -16779529 -25199362
            -1921064961 -1879065105 -1895839490 -805306882</internalNodes>
          <leafValues>
            -6.8761253356933594e-01 -6.9635927677154541e-02</leafValues></_>
        <_>
          <internalNodes>
            0 -1 123 -546 -1241581587 -65548 -33751076 -1097007649
            -1107954692 -285430536 -1996950055</internalNodes>
          <leafValues>
            -4.7831332683563232e-01 2.2803695499897003e-01</leafValues></_>
        <_>
          <internalNodes>
            0 -1 42 1358813407 -134145 -172099713 -19529987 2010462199
            -3317761 -268571137 -44172201</internalNodes>
          <leafValues>
            -2.8276517987251282e-01 4.0021207928657532e-01</leafValues></_>
        <_>
          <internalNodes>
            0 -1 4 -271908867 -897782738 1040098039 -478311890
            -537018465 -1353777538 2130542591 1610436447</internalNodes>
          <leafValues>
            -3.2635253667831421e-01 3.5274389386177063e-01</leafValues></_>
        <_>
          <internalNodes>
            0 -1 171 -595612013 138018737 -1881147411 -2060005757
            -1173512766 305329986 898215663 1700001763</internalNodes>
          <leafValues>
            -3.9545106887817383e-01 2.7451971173286438e-01</leafValues></_>
        <_>
          <internalNodes>
            0 -1 94 472930132 -1043080 -278459331 -1078059100 1479568828
            -88163330 -1134529284 673197312</internalNodes>
          <leafValues>
            -5.8619052171707153e-01 1.8389083445072174e-01</leafValues></_>
        <_>
          <internalNodes>
            0 -1 212 -1901547733 -1345603586 -285278218 -207618130
            -1342427581 267579253 637005796 -1649674780</internalNodes>
          <leafValues>
            -4.5933288335800171e-01 2.3428107798099518e-01</leafValues></_>
        <_>
          <internalNodes>
            0 -1 140 448315253 -1711604228 -546575363 -1115884291
            -1619673097 -8520857 -34478595 -1087756932</internalNodes>
          <leafValues>
            -3.3532953262329102e-01 3.2553336024284363e-01</leafValues></_>
        <_>
          <internalNodes>
            0 -1 15 -349464901 -911693574 -605116163 1438606274
            -225452802 -1162969794 1083700351 1158140755</internalNodes>
          <leafValues>
            -3.4068900346755981e-01 3.2873609662055969e-01</leafValues></_>
        <_>
          <internalNodes>
            0 -1 218 -273951070 -2009145704 -891293984 -1159856559
            111081159 80697656 -947944304 -1260405250</internalNodes>
          <leafValues>
            -3.6690238118171692e-01 3.0021703243255615e-01</leafValues></_>
        <_>
          <internalNodes>
            0 -1 124 -1666952868 -742982155 -10510365 -66378 -1179108355
            -413213769 -1086522410 -1103737380</internalNodes>
          <leafValues>
            -3.7296813726425171e-01 3.0168959498405457e-01</leafValues></_>
        <_>
          <internalNodes>
            0 -1 77 -1990878806 692027199 647870461 -1426071658
            1995947046 12500255 -1375360500 607124807</internalNodes>
          <leafValues>
            -5.8458918333053589e-01 1.8263269960880280e-01</leafValues></_>
        <_>
          <internalNodes>
            0 -1 114 -54753064 -4407300 -2171075 -168255524 -12796428
            -1209205043 -1083310375 -1349772252</internalNodes>
          <leafValues>
            -3.7944176793098450e-01 2.7799636125564575e-01</leafValues></_>
        <_>
          <internalNodes>
            0 -1 39 -2104783070 -1432198238 -5761480 -1342799916
            -1493752514 1722325835 1970624594 -751337689</internalNodes>
          <leafValues>
            -4.0181791782379150e-01 2.6793029904365540e-01</leafValues></_></weakClassifiers></_>
    <!-- stage 11 -->
    <_>
      <maxWeakCount>15</maxWeakCount>
      <stageThreshold>-2.3843774795532227e+00</stageThreshold>
      <weakClassifiers>
        <_>
          <internalNodes>
            0 -1 199 -1073741825 -37937 -1418203522 -35086 268435183
            -1898008079 536596223 -257</internalNodes>
          <leafValues>
            -8.8250458240509033e-01 -5.3550374507904053e-01</leafValues></_>
        <_>
          <internalNodes>
            0 -1 45 1574272511 -545391169 2147344383 -4325889 -589862
            -203022 -1090519073 -3834890</internalNodes>
          <leafValues>
            -5.9231346845626831e-01 2.3125154897570610e-02</leafValues></_>
        <_>
          <internalNodes>
            0 -1 2 -626333489 -72825430 -68829443 -571418506 1342177279
            -1610961929 1434443775 -42732589</internalNodes>
          <leafValues>
            -3.6133190989494324e-01 3.0210322141647339e-01</leafValues></_>
        <_>
          <internalNodes>
            0 -1 220 -1884291937 -1883244881 -855638018 -68158219
            536852115 258997073 973071785 -940849171</internalNodes>
          <leafValues>
            -3.8171049952507019e-01 2.9994058609008789e-01</leafValues></_>
        <_>
          <internalNodes>
            0 -1 49 2147170034 -545589388 -73465990 -302219270
            1827692534 -169574410 -229380 1581278498</internalNodes>
          <leafValues>
            -6.0023850202560425e-01 1.8560658395290375e-01</leafValues></_>
        <_>
          <internalNodes>
            0 -1 135 -1297285216 -38928804 -13533456 -137366332
            -76695073 -845550664 431971580 213906679</internalNodes>
          <leafValues>
            -4.8001825809478760e-01 2.4341955780982971e-01</leafValues></_>
        <_>
          <internalNodes>
            0 -1 131 -1979147844 -1103577644 -1347949313 -1275220011
            -545460227 -1087394817 -1677733889 992091159</internalNodes>
          <leafValues>
            -4.3548965454101562e-01 2.4571783840656281e-01</leafValues></_>
        <_>
          <internalNodes>
            0 -1 175 -813744526 1424726754 -218696144 -1493172775
            1727526898 17266244 1148665954 1142411487</internalNodes>
          <leafValues>
            -5.0137174129486084e-01 2.0973850786685944e-01</leafValues></_>
        <_>
          <internalNodes>
            0 -1 128 -321114244 -1078181891 -102342729 -1686328076
            -1426195528 -94374147 -71459139 -2000942312</internalNodes>
          <leafValues>
            -4.5897203683853149e-01 2.2255517542362213e-01</leafValues></_>
        <_>
          <internalNodes>
            0 -1 86 603060060 -274862404 1537654190 964542421 1595014378
            1069412333 933994058 2004975614</internalNodes>
          <leafValues>
            -5.0491362810134888e-01 2.0894372463226318e-01</leafValues></_>
        <_>
          <internalNodes>
            0 -1 9 596113138 -1949654078 -1163949261 -1244671294
            -572355333 -1892679937 1090459647 -1687159189</internalNodes>
          <leafValues>
            -3.1903678178787231e-01 3.3372932672500610e-01</leafValues></_>
        <_>
          <internalNodes>
            0 -1 93 2078824948 -5735504 -537416259 -43696172 -1804044312
            -724793 -817301072 -1349512064</internalNodes>
          <leafValues>
            -3.5395166277885437e-01 3.0402585864067078e-01</leafValues></_>
        <_>
          <internalNodes>
            0 -1 47 1836989950 -1363869909 -1084311556 -871832662
            -294571210 1715354484 -44740777 1194573923</internalNodes>
          <leafValues>
            -4.3536579608917236e-01 2.5086700916290283e-01</leafValues></_>
        <_>
          <internalNodes>
            0 -1 197 -76021982 37740522 -153341326 2012734837 -71372834
            189626797 1078895808 400813999</internalNodes>
          <leafValues>
            -4.5104292035102844e-01 2.3748655617237091e-01</leafValues></_>
        <_>
          <internalNodes>
            0 -1 147 -1992803171 -1083117315 -1644970243 -1241649155
            1467546485 -847266946 -402682919 -1376115735</internalNodes>
          <leafValues>
            -3.3791574835777283e-01 3.1151607632637024e-01</leafValues></_></weakClassifiers></_>
    <!-- stage 12 -->
    <_>
      <maxWeakCount>15</maxWeakCount>
      <stageThreshold>-2.6047990322113037e+00</stageThreshold>
      <weakClassifiers>
        <_>
          <internalNodes>
            0 -1 216 -5242913 -536872964 1983889295 -572524163 -33819713
            -335812172 -100930577 -855638017</internalNodes>
          <leafValues>
            -8.5858684778213501e-01 -3.6407765746116638e-01</leafValues></_>
        <_>
          <internalNodes>
            0 -1 206 -135685 -805568769 -18888993 -704660513 -1375797265
            -805307409 -2102019 -809501185</internalNodes>
          <leafValues>
            -6.0278612375259399e-01 1.3442892581224442e-02</leafValues></_>
        <_>
          <internalNodes>
            0 -1 103 875584948 -537068041 -1342259329 -140689419
            1039416756 -1080098817 1601715391 799024994</internalNodes>
          <leafValues>
            -5.1535308361053467e-01 2.0887938141822815e-01</leafValues></_>
        <_>
          <internalNodes>
            0 -1 28 -654798605 -101471537 989401593 -1159644201
            2078626035 -76548097 -552473793 2073525123</internalNodes>
          <leafValues>
            -4.1721817851066589e-01 2.7597054839134216e-01</leafValues></_>
        <_>
          <internalNodes>
            0 -1 111 2054879444 2132336400 -1101268228 2136940036
            -273680017 -1117388995 -388 2139061332</internalNodes>
          <leafValues>
            -5.4583549499511719e-01 2.3651963472366333e-01</leafValues></_>
        <_>
          <internalNodes>
            0 -1 142 -26804346 -121843762 -287310268 -1116078594
            -135268477 -1237098591 -948989947 -2128401514</internalNodes>
          <leafValues>
            -4.2967581748962402e-01 2.6025286316871643e-01</leafValues></_>
        <_>
          <internalNodes>
            0 -1 30 -157188128 -353260423 -71770113 -135188481
            1702262641 1970633853 -14330010 1882805623</internalNodes>
          <leafValues>
            -4.9379992485046387e-01 2.0028278231620789e-01</leafValues></_>
        <_>
          <internalNodes>
            0 -1 187 -1353481682 -70539116 -1277320996 -2058972468
            -2089817398 -1444514624 400398544 1430372736</internalNodes>
          <leafValues>
            -5.0014340877532959e-01 2.0610876381397247e-01</leafValues></_>
        <_>
          <internalNodes>
            0 -1 113 -1180403844 -88132 -151085074 -1208053763
            -536883252 896985933 -1210655748 -1426316852</internalNodes>
          <leafValues>
            -3.9327451586723328e-01 2.5717332959175110e-01</leafValues></_>
        <_>
          <internalNodes>
            0 -1 106 -1416971486 -8456652 -1452327182 867233056
            -276972073 -545343897 -335643246 589366592</internalNodes>
          <leafValues>
            -5.8950781822204590e-01 1.7517542839050293e-01</leafValues></_>
        <_>
          <internalNodes>
            0 -1 20 -101782817 -1891471732 1022737655 -805837086
            -415339580 1807936332 890572239 -940056521</internalNodes>
          <leafValues>
            -3.7281331419944763e-01 2.7125501632690430e-01</leafValues></_>
        <_>
          <internalNodes>
            0 -1 116 -19409418 767354862 -1113662599 -437461026
            2140167164 879583167 -53870885 142010356</internalNodes>
          <leafValues>
            -4.7646328806877136e-01 2.2355915606021881e-01</leafValues></_>
        <_>
          <internalNodes>
            0 -1 184 -139612790 74183466 -1463651632 323089267
            1460257703 1140858418 5269062 1417671935</internalNodes>
          <leafValues>
            -4.3275198340415955e-01 2.3786766827106476e-01</leafValues></_>
        <_>
          <internalNodes>
            0 -1 97 -470876340 -428001522 -541196705 1583939074
            -81535147 -134819 -88093100 371386960</internalNodes>
          <leafValues>
            -5.9013724327087402e-01 1.6599309444427490e-01</leafValues></_>
        <_>
          <internalNodes>
            0 -1 201 -1346371590 -1358989575 -287312620 -139919722
            1072690117 1305104347 -4198956 -2097158</internalNodes>
          <leafValues>
            -3.1328558921813965e-01 3.1887874007225037e-01</leafValues></_></weakClassifiers></_>
    <!-- stage 13 -->
    <_>
      <maxWeakCount>18</maxWeakCount>
      <stageThreshold>-2.5791878700256348e+00</stageThreshold>
      <weakClassifiers>
        <_>
          <internalNodes>
            0 -1 170 -5242881 -1573891 -73400321 -4197185 -1623724034
            -591407756 -1082130466 -570436101</internalNodes>
          <leafValues>
            -8.7853860855102539e-01 -5.4590898752212524e-01</leafValues></_>
        <_>
          <internalNodes>
            0 -1 223 -1879050241 -1350567937 -285214721 -343932977
            -1343227313 -1342181441 -1929381633 -513</internalNodes>
          <leafValues>
            -6.1997127532958984e-01 -3.3430293202400208e-02</leafValues></_>
        <_>
          <internalNodes>
            0 -1 136 506789337 -460804 -1614824195 -4939779 -1092689921
            -69550596 -1880117249 -1078317400</internalNodes>
          <leafValues>
            -3.6202073097229004e-01 3.2583782076835632e-01</leafValues></_>
        <_>
          <internalNodes>
            0 -1 38 1431679764 1867901759 2130556541 2004171757
            1977417681 2080176872 2028697499 1072300029</internalNodes>
          <leafValues>
            -4.8317766189575195e-01 2.1595993638038635e-01</leafValues></_>
        <_>
          <internalNodes>
            0 -1 189 -18194689 -4170 -696397605 -2099822 -284537602
            -1163201540 1026557642 1107354114</internalNodes>
          <leafValues>
            -3.7959319353103638e-01 2.8333330154418945e-01</leafValues></_>
        <_>
          <internalNodes>
            0 -1 67 1996096147 -1342308038 -1243141129 2012484442
            -975332229 -139538591 -1076893841 2127722495</internalNodes>
          <leafValues>
            -3.9563331007957458e-01 2.6618432998657227e-01</leafValues></_>
        <_>
          <internalNodes>
            0 -1 191 -138412114 1342016958 -285284446 -68845569
            -1410084909 258473854 -776309255 -12385</internalNodes>
          <leafValues>
            -2.9134225845336914e-01 3.5215100646018982e-01</leafValues></_>
        <_>
          <internalNodes>
            0 -1 179 -1098930894 -2018518366 -67764752 872413160
            -168448003 -1949894794 -201346592 -420489433</internalNodes>
          <leafValues>
            -3.9329919219017029e-01 2.6587527990341187e-01</leafValues></_>
        <_>
          <internalNodes>
            0 -1 101 799839668 1542765846 1741684733 -715375 -381923339
            -1342231313 -7061574 -1347277468</internalNodes>
          <leafValues>
            -3.6968448758125305e-01 2.8378012776374817e-01</leafValues></_>
        <_>
          <internalNodes>
            0 -1 210 -351536478 -165038286 -1097859584 -227804092
            -2032364988 235089201 1450678020 -1068501582</internalNodes>
          <leafValues>
            -3.5401001572608948e-01 2.8140494227409363e-01</leafValues></_>
        <_>
          <internalNodes>
            0 -1 120 824475069 -131076 2139078111 -671301635 -1384792067
            -16973825 -1090764804 -1346632464</internalNodes>
          <leafValues>
            -3.0621516704559326e-01 3.3747240900993347e-01</leafValues></_>
        <_>
          <internalNodes>
            0 -1 26 -1024462097 -211096182 1610435797 -10881278
            -1577107521 1991930686 -1028141647 1819801431</internalNodes>
          <leafValues>
            -3.2788780331611633e-01 3.1909525394439697e-01</leafValues></_>
        <_>
          <internalNodes>
            0 -1 193 -1226899542 -1983176836 1962933716 -335609860
            -1359392773 -807536129 -1611072275 -2004879960</internalNodes>
          <leafValues>
            -4.8936960101127625e-01 2.1157430112361908e-01</leafValues></_>
        <_>
          <internalNodes>
            0 -1 162 168565168 -1615970436 184418301 978262517
            -1422983177 -1082213538 452959679 758516529</internalNodes>
          <leafValues>
            -6.1264705657958984e-01 1.6476356983184814e-01</leafValues></_>
        <_>
          <internalNodes>
            0 -1 74 -477432333 -1364449158 1808889279 1393646293
            -2030049721 -1901907203 1373388799 1534940654</internalNodes>
          <leafValues>
            -3.6642369627952576e-01 2.8322720527648926e-01</leafValues></_>
        <_>
          <internalNodes>
            0 -1 183 -5296632 805840554 -1404830064 1919282160
            1443100498 661275426 1264723456 1141859558</internalNodes>
          <leafValues>
            -5.4524028301239014e-01 1.8736165761947632e-01</leafValues></_>
        <_>
          <internalNodes>
            0 -1 43 -839031068 -68323331 -1582760002 -18483620 -773232
            -135963650 -67108906 -485460654</internalNodes>
          <leafValues>
            -4.8142626881599426e-01 2.0329990983009338e-01</leafValues></_>
        <_>
          <internalNodes>
            0 -1 215 -1927562079 114984824 -656802831 -1240467159
            -1279673649 -1414545528 208845277 -1614819887</internalNodes>
          <leafValues>
            -3.2510751485824585e-01 3.1756758689880371e-01</leafValues></_></weakClassifiers></_>
    <!-- stage 14 -->
    <_>
      <maxWeakCount>18</maxWeakCount>
      <stageThreshold>-2.6942443847656250e+00</stageThreshold>
      <weakClassifiers>
        <_>
          <internalNodes>
            0 -1 169 -134238217 -1075839066 1335879167 -34605065
            -16515086 -114254352 -275005445 -42205193</internalNodes>
          <leafValues>
            -8.8199645280838013e-01 -5.7492566108703613e-01</leafValues></_>
        <_>
          <internalNodes>
            0 -1 144 -2097153 -1411842597 -142608139 -999031473
            -201589249 -1354236417 -4589061 -1929394435</internalNodes>
          <leafValues>
            -6.3994121551513672e-01 -5.7999722659587860e-02</leafValues></_>
        <_>
          <internalNodes>
            0 -1 195 -13524110 2142350052 1577008645 2113774840
            -1569214997 -415496 -134772497 1432027372</internalNodes>
          <leafValues>
            -4.1896197199821472e-01 2.1080839633941650e-01</leafValues></_>
        <_>
          <internalNodes>
            0 -1 70 284688585 1472052725 -1576017169 854963051
            1686449520 2143058943 115293467 986529422</internalNodes>
          <leafValues>
            -5.5185693502426147e-01 1.7225569486618042e-01</leafValues></_>
        <_>
          <internalNodes>
            0 -1 168 -797988974 -1279328526 2011034838 888530678
            -1083196421 1313274309 -523267920 1414002135</internalNodes>
          <leafValues>
            -4.4021633267402649e-01 2.3325000703334808e-01</leafValues></_>
        <_>
          <internalNodes>
            0 -1 65 -1078585439 467805039 1924537326 -1129415683
            -1182892234 -1795916449 -1082205322 -541950093</internalNodes>
          <leafValues>
            -3.6856004595756531e-01 2.5468364357948303e-01</leafValues></_>
        <_>
          <internalNodes>
            0 -1 88 2062453842 1863192079 978648319 428346974 2074082949
            1972869743 -293741057 -541115270</internalNodes>
          <leafValues>
            -3.8077178597450256e-01 2.4844752252101898e-01</leafValues></_>
        <_>
          <internalNodes>
            0 -1 100 1990204912 -671887 -69288493 -1112100894
            -1367826964 -34308612 -1392530513 447348768</internalNodes>
          <leafValues>
            -3.8518589735031128e-01 2.4769929051399231e-01</leafValues></_>
        <_>
          <internalNodes>
            0 -1 29 -1029191253 -811013856 -671125664 -33960590 -596305
            515796847 2012040919 -246940377</internalNodes>
          <leafValues>
            -2.6639980077743530e-01 3.7371233105659485e-01</leafValues></_>
        <_>
          <internalNodes>
            0 -1 223 263968063 -1363728514 -539238721 -294690858
            805175007 -1879050225 -1677992739 -1950351364</internalNodes>
          <leafValues>
            -4.3089196085929871e-01 2.2577311098575592e-01</leafValues></_>
        <_>
          <internalNodes>
            0 -1 157 729284388 -1380975180 452788152 -573116252
            -1888111120 -1666788127 1044069648 1085756723</internalNodes>
          <leafValues>
            -5.7677084207534790e-01 1.6710381209850311e-01</leafValues></_>
        <_>
          <internalNodes>
            0 -1 138 -1667714056 -1073988432 -35686408 964630360
            -1141313874 -1170245030 1591265757 -1613226500</internalNodes>
          <leafValues>
            -3.8642153143882751e-01 2.3960570991039276e-01</leafValues></_>
        <_>
          <internalNodes>
            0 -1 186 -71324245 1386512352 1509386884 -772020798
            -52252182 -1928528176 484409562 -2075286582</internalNodes>
          <leafValues>
            -2.8251963853836060e-01 3.4939378499984741e-01</leafValues></_>
        <_>
          <internalNodes>
            0 -1 14 -70521150 -1903259994 1633666704 1430999168
            -270552065 -813729517 -708659729 -550547129</internalNodes>
          <leafValues>
            -3.1988501548767090e-01 2.9841634631156921e-01</leafValues></_>
        <_>
          <internalNodes>
            0 -1 150 788298680 -1078296780 2077220592 -273047120
            -1648649735 -12715217 805126124 -1115940192</internalNodes>
          <leafValues>
            -4.5522090792655945e-01 2.2005479037761688e-01</leafValues></_>
        <_>
          <internalNodes>
            0 -1 92 -276645088 -1778976131 -1753403676 -241603045
            1953544004 -146915521 -809625737 -1613361328</internalNodes>
          <leafValues>
            -4.0900263190269470e-01 2.4232235550880432e-01</leafValues></_>
        <_>
          <internalNodes>
            0 -1 34 -1439560607 -2089550109 -1648148619 653734807
            1880431953 592674603 2051493651 801013571</internalNodes>
          <leafValues>
            -5.8595728874206543e-01 1.6417022049427032e-01</leafValues></_>
        <_>
          <internalNodes>
            0 -1 125 -567781891 -72202248 2130706415 -775203160
            -134430723 1073741811 -293699618 -1141234180</internalNodes>
          <leafValues>
            -2.9290202260017395e-01 3.3976861834526062e-01</leafValues></_></weakClassifiers></_>
    <!-- stage 15 -->
    <_>
      <maxWeakCount>15</maxWeakCount>
      <stageThreshold>-2.4790387153625488e+00</stageThreshold>
      <weakClassifiers>
        <_>
          <internalNodes>
            0 -1 219 -262213 -1343225898 -50857985 -75497733 -268439601
            234877951 -1748002369 -1</internalNodes>
          <leafValues>
            -8.7870252132415771e-01 -5.6607496738433838e-01</leafValues></_>
        <_>
          <internalNodes>
            0 -1 62 -571384345 1490940895 -1145480433 -16909825
            -34537474 -371233125 -262321 -36316166</internalNodes>
          <leafValues>
            -5.7964813709259033e-01 2.0395505707710981e-03</leafValues></_>
        <_>
          <internalNodes>
            0 -1 178 -136314881 -10485810 -1619002437 -138937602
            -1079969060 -34091844 1064369100 147062920</internalNodes>
          <leafValues>
            -5.7511043548583984e-01 1.3353802263736725e-01</leafValues></_>
        <_>
          <internalNodes>
            0 -1 83 896286708 2111361136 259837755 -14684580 519339132
            -1111722518 2103344830 682636130</internalNodes>
          <leafValues>
            -4.4602212309837341e-01 2.0441263914108276e-01</leafValues></_>
        <_>
          <internalNodes>
            0 -1 118 1988361984 -1348929616 -1127303466 606860285
            -164823657 927448053 -1498859433 -1254572049</internalNodes>
          <leafValues>
            -4.8241335153579712e-01 2.2098575532436371e-01</leafValues></_>
        <_>
          <internalNodes>
            0 -1 176 -1612186249 -1447297027 -285262098 -335680517
            -1883243265 -805339649 -1125126403 -1376002881</internalNodes>
          <leafValues>
            -2.8708848357200623e-01 3.5527944564819336e-01</leafValues></_>
        <_>
          <internalNodes>
            0 -1 107 909651022 -1589718737 1088111198 -92318977
            -1687356347 1979044059 1065408577 884560127</internalNodes>
          <leafValues>
            -5.3099972009658813e-01 1.9477254152297974e-01</leafValues></_>
        <_>
          <internalNodes>
            0 -1 76 -529728582 -911564086 529736181 -302022620
            -566364181 -1359398241 2012722399 1199523403</internalNodes>
          <leafValues>
            -3.7613716721534729e-01 2.5651538372039795e-01</leafValues></_>
        <_>
          <internalNodes>
            0 -1 19 1257376442 -1415434334 -1863522315 -472701118
            -541615177 1028269611 516042419 1903250723</internalNodes>
          <leafValues>
            -5.1583212614059448e-01 1.8225391209125519e-01</leafValues></_>
        <_>
          <internalNodes>
            0 -1 95 -1028870228 705603376 -101782379 -1511267167
            -1083381249 402618173 1879046926 622214404</internalNodes>
          <leafValues>
            -5.7692182064056396e-01 1.6362404823303223e-01</leafValues></_>
        <_>
          <internalNodes>
            0 -1 207 -269564254 -508563350 -262746496 -184697360
            -1953438656 113442358 259699605 -958933277</internalNodes>
          <leafValues>
            -3.4728327393531799e-01 2.6169344782829285e-01</leafValues></_>
        <_>
          <internalNodes>
            0 -1 141 -2113745515 -537068115 1879046527 -706900569
            855420595 -782837125 -151225012 -2051598292</internalNodes>
          <leafValues>
            -3.3700451254844666e-01 2.7629932761192322e-01</leafValues></_>
        <_>
          <internalNodes>
            0 -1 164 -2137194718 -36374140 -217858124 2045492560
            -1896116993 -1887704919 1572587993 -1913350927</internalNodes>
          <leafValues>
            -4.7053837776184082e-01 1.9826477766036987e-01</leafValues></_>
        <_>
          <internalNodes>
            0 -1 48 -524317 941947247 -371310604 -665128898 2138013479
            2102885206 -80726689 289879155</internalNodes>
          <leafValues>
            -3.7630012631416321e-01 2.5194165110588074e-01</leafValues></_>
        <_>
          <internalNodes>
            0 -1 89 -1784941132 769158988 1023339725 -134259098
            888648965 -1285556357 749668356 813691405</internalNodes>
          <leafValues>
            -4.9421262741088867e-01 2.0152196288108826e-01</leafValues></_></weakClassifiers></_>
    <!-- stage 16 -->
    <_>
      <maxWeakCount>17</maxWeakCount>
      <stageThreshold>-2.5715949535369873e+00</stageThreshold>
      <weakClassifiers>
        <_>
          <internalNodes>
            0 -1 203 -65 -269492545 -19990914 -2097217 -67895837
            268169589 -1665145351 -257</internalNodes>
          <leafValues>
            -9.0075361728668213e-01 -6.4369994401931763e-01</leafValues></_>
        <_>
          <internalNodes>
            0 -1 84 2102678525 -537208873 -100714693 -33689676
            -1372299329 -67796993 -21464065 -6146302</internalNodes>
          <leafValues>
            -5.7855373620986938e-01 -2.0019881427288055e-02</leafValues></_>
        <_>
          <internalNodes>
            0 -1 82 834008448 -250233505 502914972 -738852965 -539101458
            -1446759980 -933365752 817216318</internalNodes>
          <leafValues>
            -5.4939067363739014e-01 1.4424766600131989e-01</leafValues></_>
        <_>
          <internalNodes>
            0 -1 204 -1409417361 -1879410177 -325189930 -1185226756
            461370366 792716125 264230485 -1141119748</internalNodes>
          <leafValues>
            -3.4781742095947266e-01 2.8751403093338013e-01</leafValues></_>
        <_>
          <internalNodes>
            0 -1 75 -90308365 -119633261 -232858213 821166750 -808497585
            -840310994 -854598353 2126525010</internalNodes>
          <leafValues>
            -4.8350811004638672e-01 2.0569339394569397e-01</leafValues></_>
        <_>
          <internalNodes>
            0 -1 115 -1131891660 524351920 -85055683 -809739201
            -1234633219 922025388 -4390995 1000996916</internalNodes>
          <leafValues>
            -4.6772468090057373e-01 1.9514305889606476e-01</leafValues></_>
        <_>
          <internalNodes>
            0 -1 69 -2090418206 -316473618 1675613922 -68654526
            -1688899674 95311679 626724012 33281922</internalNodes>
          <leafValues>
            -4.5623457431793213e-01 2.1189141273498535e-01</leafValues></_>
        <_>
          <internalNodes>
            0 -1 181 -864551786 754831036 802099647 549119909 -148597280
            -1205491344 1932892804 1275252122</internalNodes>
          <leafValues>
            -3.9755976200103760e-01 2.2883473336696625e-01</leafValues></_>
        <_>
          <internalNodes>
            0 -1 167 -439929056 -1488782010 -775966352 -2119958543
            -4469761 -547382341 -1328810816 -2013801490</internalNodes>
          <leafValues>
            -4.2023622989654541e-01 2.3740321397781372e-01</leafValues></_>
        <_>
          <internalNodes>
            0 -1 17 -1392708654 -738690 -419652463 -1263201825
            1929797732 -156275805 -407376139 768960099</internalNodes>
          <leafValues>
            -4.8544111847877502e-01 1.9433930516242981e-01</leafValues></_>
        <_>
          <internalNodes>
            0 -1 133 -1430740464 -563281932 -1678274819 834486229
            -84206635 -80011681 -303596099 -1682736862</internalNodes>
          <leafValues>
            -3.7631669640541077e-01 2.4581645429134369e-01</leafValues></_>
        <_>
          <internalNodes>
            0 -1 174 -308701150 1575762432 -1534383300 2138951679
            790966143 57295201 1964180596 1179870370</internalNodes>
          <leafValues>
            -4.6419107913970947e-01 2.1412216126918793e-01</leafValues></_>
        <_>
          <internalNodes>
            0 -1 205 -16842753 -1955346433 -62982473 -621322754
            733675453 260006140 1234949628 -1896089409</internalNodes>
          <leafValues>
            -3.7174066901206970e-01 2.5603696703910828e-01</leafValues></_>
        <_>
          <internalNodes>
            0 -1 85 2023620052 89372826 -576669204 628219341 1862958044
            -1173087848 -1478737 686060034</internalNodes>
          <leafValues>
            -4.2247387766838074e-01 2.3266538977622986e-01</leafValues></_>
        <_>
          <internalNodes>
            0 -1 57 579739282 -1968549148 1036189119 862133644
            -486876885 -1229763777 -1631846914 -1779707653</internalNodes>
          <leafValues>
            -3.4199899435043335e-01 2.7707266807556152e-01</leafValues></_>
        <_>
          <internalNodes>
            0 -1 188 -1375560272 -36078088 -1208573953 -1075840483
            -1363152961 -134353975 -1683030049 -1735900976</internalNodes>
          <leafValues>
            -4.6291306614875793e-01 2.1329587697982788e-01</leafValues></_>
        <_>
          <internalNodes>
            0 -1 0 -375275616 -86987512 1602999272 -1141539977
            1038476030 -120360795 -606147673 2035646309</internalNodes>
          <leafValues>
            -4.7072511911392212e-01 1.9407837092876434e-01</leafValues></_></weakClassifiers></_>
    <!-- stage 17 -->
    <_>
      <maxWeakCount>19</maxWeakCount>
      <stageThreshold>-2.6780860424041748e+00</stageThreshold>
      <weakClassifiers>
        <_>
          <internalNodes>
            0 -1 44 -234882305 -771753797 -317861409 -168443553
            -16777237 -1052946 -68162161 -2232325</internalNodes>
          <leafValues>
            -8.5749483108520508e-01 -4.2371019721031189e-01</leafValues></_>
        <_>
          <internalNodes>
            0 -1 211 -1345585241 -1353203914 -621545514 -639109652
            805018407 239072628 127111588 -1611663649</internalNodes>
          <leafValues>
            -6.0890412330627441e-01 -4.9621358513832092e-02</leafValues></_>
        <_>
          <internalNodes>
            0 -1 40 -2071814736 -113970370 7576917 -742680681 222747546
            1069482011 232971810 -277610701</internalNodes>
          <leafValues>
            -3.7120544910430908e-01 2.5575691461563110e-01</leafValues></_>
        <_>
          <internalNodes>
            0 -1 80 2097139008 -738504211 1691142031 1892406099
            -252903426 -1157958785 -270009358 -1124556918</internalNodes>
          <leafValues>
            -3.6483514308929443e-01 2.6602041721343994e-01</leafValues></_>
        <_>
          <internalNodes>
            0 -1 59 1126846251 -1495087178 232478167 1882766068
            1266650555 -360834833 1264475647 1559546867</internalNodes>
          <leafValues>
            -4.3437418341636658e-01 2.6000452041625977e-01</leafValues></_>
        <_>
          <internalNodes>
            0 -1 104 456176185 -1691108253 -1888100881 624010675
            -1052121705 2071810301 -270584913 1811779494</internalNodes>
          <leafValues>
            -3.2685813307762146e-01 3.0229520797729492e-01</leafValues></_>
        <_>
          <internalNodes>
            0 -1 129 -1496488520 -1181036188 913542009 1060208565
            -6373729 -1499537992 -1143017491 -1998805602</internalNodes>
          <leafValues>
            -3.1456562876701355e-01 2.9748347401618958e-01</leafValues></_>
        <_>
          <internalNodes>
            0 -1 213 -1432887881 -1921117290 -1480926020 -170559498
            55309301 -1512970425 320500476 -977806273</internalNodes>
          <leafValues>
            -3.7892010807991028e-01 2.5521743297576904e-01</leafValues></_>
        <_>
          <internalNodes>
            0 -1 91 882679616 805106508 -1794995314 -645561397
            -539628912 854445601 445419242 654347927</internalNodes>
          <leafValues>
            -6.2571537494659424e-01 1.5425251424312592e-01</leafValues></_>
        <_>
          <internalNodes>
            0 -1 16 -479395850 -321724278 1060350203 1403674862
            -849369138 -1351577444 -318674241 2147308601</internalNodes>
          <leafValues>
            -3.7170284986495972e-01 2.6147860288619995e-01</leafValues></_>
        <_>
          <internalNodes>
            0 -1 41 -77332489 -541901853 -4456450 704610259 -709800329
            -403210249 -19828899 -297131</internalNodes>
          <leafValues>
            -2.4294692277908325e-01 4.1526973247528076e-01</leafValues></_>
        <_>
          <internalNodes>
            0 -1 126 -1091239947 -21463695 -603979777 -233996 -16779619
            -142672385 -37962244 -1386393276</internalNodes>
          <leafValues>
            -2.7940994501113892e-01 3.7273567914962769e-01</leafValues></_>
        <_>
          <internalNodes>
            0 -1 182 2146959355 799784632 1073707837 79560495 -16714392
            -1675510832 1058176922 -594422882</internalNodes>
          <leafValues>
            -2.6674395799636841e-01 3.6185359954833984e-01</leafValues></_>
        <_>
          <internalNodes>
            0 -1 109 351300116 117217780 -1785840657 -1076039401
            941521120 -1280022096 1538031037 737164836</internalNodes>
          <leafValues>
            -5.9363734722137451e-01 1.6145895421504974e-01</leafValues></_>
        <_>
          <internalNodes>
            0 -1 190 2007875562 1365631684 1182912324 33464528
            -537281060 429947840 -1157304433 1374642266</internalNodes>
          <leafValues>
            -3.4851124882698059e-01 2.7096483111381531e-01</leafValues></_>
        <_>
          <internalNodes>
            0 -1 121 -1351330332 -2953218 -108010164 -69325091
            -1100395011 -1281826644 -10819590 -1773664792</internalNodes>
          <leafValues>
            -3.9985463023185730e-01 2.3951055109500885e-01</leafValues></_>
        <_>
          <internalNodes>
            0 -1 33 -134222302 -473398586 -1625835902 -136848510
            1810360047 209969555 1849115591 -152570937</internalNodes>
          <leafValues>
            -3.1808099150657654e-01 3.1194442510604858e-01</leafValues></_>
        <_>
          <internalNodes>
            0 -1 194 -1985264176 -1647585848 -472212875 -1584294103
            -391139414 -1956996454 1161025492 -2075659808</internalNodes>
          <leafValues>
            -4.2141401767730713e-01 2.4317693710327148e-01</leafValues></_>
        <_>
          <internalNodes>
            0 -1 98 -1406881488 -1364277854 1363219440 1470274530
            -838800330 -1912690031 452841908 -2118695664</internalNodes>
          <leafValues>
            -4.8237550258636475e-01 2.0976099371910095e-01</leafValues></_></weakClassifiers></_></stages>
  <features>
    <_>
      <rect>
        0 0 3 10</rect></_>
    <_>
      <rect>
        0 0 4 2</rect></_>
    <_>
      <rect>
        0 0 4 5</rect></_>
    <_>
      <rect>
        0 0 6 5</rect></_>
    <_>
      <rect>
        0 0 7 2</rect></_>
    <_>
      <rect>
        0 0 8 10</rect></_>
    <_>
      <rect>
        0 0 9 3</rect></_>
    <_>
      <rect>
        0 0 10 5</rect></_>
    <_>
      <rect>
        0 0 10 8</rect></_>
    <_>
      <rect>
        0 1 2 1</rect></_>
    <_>
      <rect>
        0 1 3 5</rect></_>
    <_>
      <rect>
        0 1 5 6</rect></_>
    <_>
      <rect>
        0 1 8 4</rect></_>
    <_>
      <rect>
        0 1 10 6</rect></_>
    <_>
      <rect>
        0 2 3 1</rect></_>
    <_>
      <rect>
        0 2 3 3</rect></_>
    <_>
      <rect>
        0 2 6 1</rect></_>
    <_>
      <rect>
        0 2 7 9</rect></_>
    <_>
      <rect>
        0 2 8 3</rect></_>
    <_>
      <rect>
        0 3 3 5</rect></_>
    <_>
      <rect>
        0 3 4 2</rect></_>
    <_>
      <rect>
        0 3 5 3</rect></_>
    <_>
      <rect>
        0 4 3 5</rect></_>
    <_>
      <rect>
        0 5 3 4</rect></_>
    <_>
      <rect>
        0 5 3 6</rect></_>
    <_>
      <rect>
        0 5 5 6</rect></_>
    <_>
      <rect>
        0 6 3 3</rect></_>
    <_>
      <rect>
        0 6 4 5</rect></_>
    <_>
      <rect>
        0 6 6 6</rect></_>
    <_>
      <rect>
        0 7 2 3</rect></_>
    <_>
      <rect>
        0 9 3 6</rect></_>
    <_>
      <rect>
        0 9 10 4</rect></_>
    <_>
      <rect>
        0 10 10 5</rect></_>
    <_>
      <rect>
        0 11 2 1</rect></_>
    <_>
      <rect>
        0 11 3 3</rect></_>
    <_>
      <rect>
        0 11 10 5</rect></_>
    <_>
      <rect>
        0 13 4 4</rect></_>
    <_>
      <rect>
        0 13 7 5</rect></_>
    <_>
      <rect>
        0 13 9 4</rect></_>
    <_>
      <rect>
        0 14 1 2</rect></_>
    <_>
      <rect>
        0 14 1 5</rect></_>
    <_>
      <rect>
        0 14 5 2</rect></_>
    <_>
      <rect>
        0 14 6 4</rect></_>
    <_>
      <rect>
        0 15 4 5</rect></_>
    <_>
      <rect>
        0 15 7 3</rect></_>
    <_>
      <rect>
        0 17 7 4</rect></_>
    <_>
      <rect>
        0 21 10 3</rect></_>
    <_>
      <rect>
        0 23 2 2</rect></_>
    <_>
      <rect>
        0 24 2 2</rect></_>
    <_>
      <rect>
        0 24 5 2</rect></_>
    <_>
      <rect>
        0 24 7 2</rect></_>
    <_>
      <rect>
        0 24 10 2</rect></_>
    <_>
      <rect>
        0 27 1 1</rect></_>
    <_>
      <rect>
        0 27 3 1</rect></_>
    <_>
      <rect>
        0 27 4 1</rect></_>
    <_>
      <rect>
        0 27 6 1</rect></_>
    <_>
      <rect>
        0 27 9 1</rect></_>
    <_>
      <rect>
        1 0 1 1</rect></_>
    <_>
      <rect>
        1 0 2 1</rect></_>
    <_>
      <rect>
        1 0 5 4</rect></_>
    <_>
      <rect>
        1 7 7 6</rect></_>
    <_>
      <rect>
        1 10 6 5</rect></_>
    <_>
      <rect>
        1 14 6 5</rect></_>
    <_>
      <rect>
        1 16 6 4</rect></_>
    <_>
      <rect>
        1 21 9 3</rect></_>
    <_>
      <rect>
        1 27 1 1</rect></_>
    <_>
      <rect>
        2 0 2 1</rect></_>
    <_>
      <rect>
        2 0 5 6</rect></_>
    <_>
      <rect>
        2 2 5 2</rect></_>
    <_>
      <rect>
        2 5 3 2</rect></_>
    <_>
      <rect>
        2 9 6 5</rect></_>
    <_>
      <rect>
        2 15 8 4</rect></_>
    <_>
      <rect>
        2 15 8 5</rect></_>
    <_>
      <rect>
        2 18 9 4</rect></_>
    <_>
      <rect>
        3 0 3 2</rect></_>
    <_>
      <rect>
        3 0 6 7</rect></_>
    <_>
      <rect>
        3 2 3 2</rect></_>
    <_>
      <rect>
        3 9 9 3</rect></_>
    <_>
      <rect>
        3 10 9 6</rect></_>
    <_>
      <rect>
        3 12 9 6</rect></_>
    <_>
      <rect>
        3 18 3 4</rect></_>
    <_>
      <rect>
        3 18 5 4</rect></_>
    <_>
      <rect>
        3 20 9 2</rect></_>
    <_>
      <rect>
        3 26 5 1</rect></_>
    <_>
      <rect>
        3 27 3 1</rect></_>
    <_>
      <rect>
        3 27 7 1</rect></_>
    <_>
      <rect>
        4 12 8 6</rect></_>
    <_>
      <rect>
        4 27 5 1</rect></_>
    <_>
      <rect>
        5 0 6 6</rect></_>
    <_>
      <rect>
        5 8 7 3</rect></_>
    <_>
      <rect>
        5 8 7 6</rect></_>
    <_>
      <rect>
        5 8 8 7</rect></_>
    <_>
      <rect>
        5 10 4 1</rect></_>
    <_>
      <rect>
        5 17 3 1</rect></_>
    <_>
      <rect>
        5 25 3 1</rect></_>
    <_>
      <rect>
        6 0 8 2</rect></_>
    <_>
      <rect>
        6 1 8 6</rect></_>
    <_>
      <rect>
        6 1 8 8</rect></_>
    <_>
      <rect>
        6 6 1 1</rect></_>
    <_>
      <rect>
        6 17 4 2</rect></_>
    <_>
      <rect>
        6 21 2 1</rect></_>
    <_>
      <rect>
        6 23 2 1</rect></_>
    <_>
      <rect>
        6 27 2 1</rect></_>
    <_>
      <rect>
        6 27 3 1</rect></_>
    <_>
      <rect>
        7 0 5 3</rect></_>
    <_>
      <rect>
        7 0 5 4</rect></_>
    <_>
      <rect>
        7 4 4 2</rect></_>
    <_>
      <rect>
        7 6 6 6</rect></_>
    <_>
      <rect>
        7 18 2 1</rect></_>
    <_>
      <rect>
        7 27 3 1</rect></_>
    <_>
      <rect>
        7 27 5 1</rect></_>
    <_>
      <rect>
        8 0 7 5</rect></_>
    <_>
      <rect>
        8 10 7 5</rect></_>
    <_>
      <rect>
        8 16 1 1</rect></_>
    <_>
      <rect>
        8 18 1 1</rect></_>
    <_>
      <rect>
        8 23 2 1</rect></_>
    <_>
      <rect>
        8 27 7 1</rect></_>
    <_>
      <rect>
        9 0 7 4</rect></_>
    <_>
      <rect>
        9 11 6 5</rect></_>
    <_>
      <rect>
        9 12 7 5</rect></_>
    <_>
      <rect>
        9 16 2 1</rect></_>
    <_>
      <rect>
        9 18 1 1</rect></_>
    <_>
      <rect>
        9 21 7 3</rect></_>
    <_>
      <rect>
        9 24 7 2</rect></_>
    <_>
      <rect>
        10 13 1 1</rect></_>
    <_>
      <rect>
        10 15 1 1</rect></_>
    <_>
      <rect>
        10 17 2 1</rect></_>
    <_>
      <rect>
        11 15 1 1</rect></_>
    <_>
      <rect>
        11 21 1 1</rect></_>
    <_>
      <rect>
        11 25 4 1</rect></_>
    <_>
      <rect>
        12 0 3 2</rect></_>
    <_>
      <rect>
        12 1 4 2</rect></_>
    <_>
      <rect>
        12 2 2 1</rect></_>
    <_>
      <rect>
        12 3 4 2</rect></_>
    <_>
      <rect>
        12 7 5 6</rect></_>
    <_>
      <rect>
        12 15 6 5</rect></_>
    <_>
      <rect>
        12 27 2 1</rect></_>
    <_>
      <rect>
        12 27 3 1</rect></_>
    <_>
      <rect>
        13 0 1 1</rect></_>
    <_>
      <rect>
        13 3 1 1</rect></_>
    <_>
      <rect>
        13 4 2 1</rect></_>
    <_>
      <rect>
        13 14 2 2</rect></_>
    <_>
      <rect>
        13 16 4 2</rect></_>
    <_>
      <rect>
        13 17 1 1</rect></_>
    <_>
      <rect>
        13 27 5 1</rect></_>
    <_>
      <rect>
        14 2 2 1</rect></_>
    <_>
      <rect>
        14 3 1 1</rect></_>
    <_>
      <rect>
        14 4 2 1</rect></_>
    <_>
      <rect>
        14 4 5 7</rect></_>
    <_>
      <rect>
        14 5 5 4</rect></_>
    <_>
      <rect>
        14 27 2 1</rect></_>
    <_>
      <rect>
        15 0 4 3</rect></_>
    <_>
      <rect>
        15 0 5 5</rect></_>
    <_>
      <rect>
        15 2 5 7</rect></_>
    <_>
      <rect>
        15 5 5 5</rect></_>
    <_>
      <rect>
        15 5 5 7</rect></_>
    <_>
      <rect>
        15 7 5 6</rect></_>
    <_>
      <rect>
        15 8 5 7</rect></_>
    <_>
      <rect>
        15 13 5 4</rect></_>
    <_>
      <rect>
        15 18 5 4</rect></_>
    <_>
      <rect>
        15 27 2 1</rect></_>
    <_>
      <rect>
        15 27 5 1</rect></_>
    <_>
      <rect>
        17 0 2 2</rect></_>
    <_>
      <rect>
        17 1 2 1</rect></_>
    <_>
      <rect>
        17 15 4 5</rect></_>
    <_>
      <rect>
        18 0 2 1</rect></_>
    <_>
      <rect>
        18 0 4 7</rect></_>
    <_>
      <rect>
        18 3 4 1</rect></_>
    <_>
      <rect>
        18 4 4 2</rect></_>
    <_>
      <rect>
        18 6 4 6</rect></_>
    <_>
      <rect>
        18 6 4 8</rect></_>
    <_>
      <rect>
        18 8 4 4</rect></_>
    <_>
      <rect>
        18 9 4 7</rect></_>
    <_>
      <rect>
        18 27 4 1</rect></_>
    <_>
      <rect>
        19 8 2 3</rect></_>
    <_>
      <rect>
        20 6 3 2</rect></_>
    <_>
      <rect>
        20 27 2 1</rect></_>
    <_>
      <rect>
        21 0 3 2</rect></_>
    <_>
      <rect>
        21 0 3 10</rect></_>
    <_>
      <rect>
        21 3 3 1</rect></_>
    <_>
      <rect>
        21 4 3 2</rect></_>
    <_>
      <rect>
        21 4 3 6</rect></_>
    <_>
      <rect>
        21 4 3 7</rect></_>
    <_>
      <rect>
        21 8 2 2</rect></_>
    <_>
      <rect>
        21 9 2 2</rect></_>
    <_>
      <rect>
        21 27 3 1</rect></_>
    <_>
      <rect>
        22 17 2 2</rect></_>
    <_>
      <rect>
        22 17 2 3</rect></_>
    <_>
      <rect>
        23 0 1 2</rect></_>
    <_>
      <rect>
        23 1 2 6</rect></_>
    <_>
      <rect>
        23 7 2 7</rect></_>
    <_>
      <rect>
        23 23 2 1</rect></_>
    <_>
      <rect>
        23 27 1 1</rect></_>
    <_>
      <rect>
        23 27 2 1</rect></_>
    <_>
      <rect>
        24 1 2 2</rect></_>
    <_>
      <rect>
        24 11 2 6</rect></_>
    <_>
      <rect>
        24 17 2 1</rect></_>
    <_>
      <rect>
        24 20 2 1</rect></_>
    <_>
      <rect>
        24 22 2 1</rect></_>
    <_>
      <rect>
        24 23 1 2</rect></_>
    <_>
      <rect>
        24 23 2 1</rect></_>
    <_>
      <rect>
        24 24 1 1</rect></_>
    <_>
      <rect>
        24 24 2 1</rect></_>
    <_>
      <rect>
        24 25 2 1</rect></_>
    <_>
      <rect>
        24 26 1 1</rect></_>
    <_>
      <rect>
        24 26 2 1</rect></_>
    <_>
      <rect>
        24 27 2 1</rect></_>
    <_>
      <rect>
        25 15 1 1</rect></_>
    <_>
      <rect>
        25 25 1 1</rect></_>
    <_>
      <rect>
        25 27 1 1</rect></_>
    <_>
      <rect>
        26 13 1 1</rect></_>
    <_>
      <rect>
        26 22 1 1</rect></_>
    <_>
      <rect>
        26 25 1 1</rect></_>
    <_>
      <rect>
        26 26 1 1</rect></_>
    <_>
      <rect>
        26 27 1 1</rect></_>
    <_>
      <rect>
        27 0 1 1</rect></_>
    <_>
      <rect>
        27 3 1 7</rect></_>
    <_>
      <rect>
        27 16 1 1</rect></_>
    <_>
      <rect>
        27 19 1 1</rect></_>
    <_>
      <rect>
        27 22 1 1</rect></_>
    <_>
      <rect>
        27 24 1 1</rect></_>
    <_>
      <rect>
        27 25 1 1</rect></_>
    <_>
      <rect>
        27 26 1 1</rect></_>
    <_>
      <rect>
        27 27 1 1</rect></_></features></cascade>
</opencv_storage>
